90
10
90
88
10
88
10
82
10
08
81
08
10
02
82
04
88
81
82
04
10
08
04
90
88
88
10
88
10
82
88
90
a0
84
88
08
81
81
10
82
84
01
08
10
10
90
10
04
88
10
04
84
90
88
10
84
10
08
02
88
10
88
88
90
08
90
08
08
81
10
90
82
88
02
84
04
88
08
88
84
08
88
08
08
88
84
82
00
10
01
04
08
82
82
02
84
04
90
88
a0
90
10
90
08
02
90
84
90
84
02
04
90
10
90
90
08
88
10
02
90
02
01
90
10
90
10
88
08
81
01
10
04
90
08
88
08
90
88
84
04
00
08
90
00
02
90
88
10
10
08
88
08
90
08
84
10
88
10
04
08
10
88
88
00
84
02
88
88
88
84
88
84
88
84
08
90
84
84
88
08
08
10
90
84
82
08
a0
01
88
08
84
10
88
90
08
10
90
01
84
82
88
90
90
00
90
02
08
84
04
02
90
88
84
10
84
10
02
04
10
88
00
08
84
84
08
88
84
88
90
81
10
88
10
00
10
10
90
88
08
81
90
81
08
88
82
08
10
88
84
84
84
00
08
88
82
84
88
84
08
10
01
08
90
84
88
88
00
88
02
88
88
02
10
04
81
10
84
88
02
08
84
04
82
04
88
04
10
08
88
08
90
04
10
00
00
08
00
10
10
04
00
88
01
08
90
08
10
08
88
08
84
88
84
90
88
01
88
00
08
88
90
04
88
02
08
02
84
81
84
82
10
81
10
88
02
10
01
10
10
82
90
82
10
08
10
08
04
90
08
00
88
88
a0
00
10
10
04
04
01
81
81
10
08
02
10
84
08
02
08
04
08
84
08
00
10
20
81
84
10
84
08
02
88
90
08
84
02
88
88
08
04
04
90
84
02
90
88
08
02
90
10
01
88
10
04
08
01
84
08
08
90
81
84
04
04
88
88
88
90
10
20
04
08
04
10
10
84
10
84
08
90
08
88
20
10
10
02
88
81
10
10
08
10
82
10
08
20
90
01
88
08
08
84
08
01
08
84
90
88
00
02
02
04
88
08
01
84
84
88
10
84
88
88
02
88
10
88
88
88
04
88
01
88
81
04
82
08
00
88
08
10
10
08
84
88
08
90
08
08
08
04
82
90
88
90
88
88
08
08
10
81
10
88
88
84
10
84
88
90
82
88
04
82
90
88
10
90
88
82
90
82
82
88
88
90
10
90
10
81
84
82
82
08
04
00
04
08
02
08
88
84
08
02
08
10
04
10
90
08
08
02
08
04
88
88
90
08
84
08
88
08
84
88
84
90
02
08
82
88
08
84
08
88
08
88
90
88
88
88
84
81
04
08
00
88
01
88
08
90
82
88
01
08
08
88
10
00
08
04
82
84
08
90
02
88
02
88
84
88
01
82
10
82
88
00
82
90
01
88
04
84
04
08
01
01
01
81
08
04
10
01
10
90
90
10
08
84
82
08
08
10
04
08
90
04
88
88
81
08
01
00
04
08
90
90
00
00
04
84
88
84
90
01
88
04
82
84
10
88
84
81
90
00
90
04
08
84
04
01
88
90
02
88
04
82
20
10
10
82
88
90
84
10
08
08
90
04
a0
90
04
88
08
84
10
90
88
90
10
10
90
08
90
84
88
08
00
82
a0
a0
08
a0
08
84
02
90
88
10
88
88
90
90
81
81
02
04
81
90
02
90
04
02
00
08
88
04
00
88
10
88
02
90
82
84
02
04
84
10
04
10
90
10
08
90
10
90
08
08
04
00
82
84
08
04
88
10
88
08
01
88
10
01
08
84
81
08
04
04
04
84
10
90
08
81
08
10
81
08
88
08
04
08
08
10
82
10
08
01
10
08
04
84
90
10
10
40
02
00
90
10
01
10
90
01
10
90
90
02
88
10
00
81
08
10
08
88
81
10
08
88
08
10
08
08
88
88
08
90
02
88
90
10
88
88
84
90
10
90
84
04
90
88
01
84
04
10
10
02
90
08
20
90
20
10
90
a0
88
10
01
08
82
10
88
04
90
04
90
90
88
88
04
88
88
10
88
08
02
08
84
08
88
01
10
90
84
88
08
08
90
84
90
02
88
08
84
84
04
00
90
88
10
82
84
84
90
10
04
01
04
08
04
08
84
08
10
00
08
00
08
00
90
08
08
08
10
08
90
84
90
08
81
90
10
84
88
20
90
82
88
02
10
82
08
04
90
00
10
84
10
10
10
c0
90
10
08
04
88
08
90
04
90
08
88
10
08
04
84
a0
10
88
10
81
90
00
88
90
08
01
81
00
90
04
04
88
10
88
88
90
82
90
02
88
10
08
10
