08
88
00
84
04
01
00
84
88
08
02
88
04
82
82
02
84
00
88
04
04
90
84
00
84
00
08
04
08
82
00
04
81
10
08
81
01
82
84
08
08
08
88
84
02
84
04
04
90
84
84
88
08
82
88
02
88
04
00
88
02
02
04
00
08
88
08
88
10
02
82
84
08
84
84
88
01
82
82
82
02
00
01
08
81
82
08
84
82
08
84
01
88
02
04
82
88
81
84
81
82
88
00
88
08
04
82
81
84
81
04
02
84
02
08
82
00
02
84
88
82
84
88
08
90
82
04
04
88
84
08
04
04
02
08
84
01
88
84
00
08
02
84
88
82
00
82
00
88
82
01
04
08
00
88
00
01
84
00
84
88
04
88
08
04
02
88
04
81
08
04
02
82
88
81
04
08
88
02
02
00
00
04
88
10
88
84
88
88
08
08
08
84
08
04
82
84
04
04
08
02
82
81
90
01
84
82
88
04
02
08
04
01
82
04
08
04
84
02
04
01
04
08
04
10
08
84
88
08
84
84
82
90
84
88
04
88
81
00
02
08
82
84
01
04
84
84
82
02
88
81
88
04
08
82
81
81
84
81
81
88
02
81
02
04
90
82
82
04
00
08
02
01
90
00
08
82
04
81
00
08
88
01
81
88
02
00
04
08
88
08
88
02
88
08
10
00
08
88
10
88
88
84
10
08
04
82
00
08
82
84
01
88
04
08
81
02
90
00
00
01
04
00
82
88
04
01
04
00
88
84
08
04
84
82
88
84
84
90
02
04
04
88
88
01
01
04
08
84
01
01
00
88
02
88
88
88
88
81
81
04
82
84
84
01
01
82
88
04
84
88
81
08
82
84
81
84
04
08
00
84
00
04
84
88
81
04
08
08
04
02
04
04
02
04
08
81
02
84
02
84
81
84
02
81
04
84
01
02
04
90
82
88
81
02
82
84
04
08
84
04
04
88
02
00
04
84
02
81
02
08
82
00
02
88
84
08
04
08
88
84
01
08
04
00
02
84
88
04
02
02
84
08
88
08
84
04
04
08
82
01
82
02
01
00
84
10
84
00
02
08
08
08
01
90
08
01
02
08
00
08
02
88
08
02
82
84
10
88
01
84
88
10
82
81
04
82
88
88
88
04
84
81
81
08
08
04
84
82
88
84
88
00
84
00
04
02
84
84
88
82
08
01
04
04
00
81
88
04
81
01
04
84
08
08
08
04
04
04
00
00
88
04
01
04
04
84
88
84
01
00
84
84
88
88
81
04
88
84
08
01
88
88
88
04
84
08
84
88
82
00
02
08
84
10
88
84
08
08
82
01
00
81
84
08
82
84
04
84
84
81
02
08
84
02
10
84
04
90
90
04
08
84
81
84
01
08
02
88
04
08
08
04
84
88
84
88
88
04
81
81
88
02
84
02
84
04
84
88
01
84
01
04
88
84
01
88
88
02
08
04
00
88
00
04
04
04
10
90
04
04
84
04
88
04
08
90
04
84
02
02
88
84
88
01
04
08
02
08
84
08
10
88
08
81
82
10
02
08
90
04
82
84
84
08
88
82
10
10
88
08
01
88
08
88
84
82
82
02
08
01
04
84
01
04
88
88
84
08
82
00
08
08
04
04
84
02
04
04
04
82
04
84
04
02
00
88
00
02
88
88
02
84
82
88
88
02
88
08
08
04
88
82
82
00
84
04
82
00
04
84
04
84
88
10
08
88
08
04
00
81
00
10
88
84
04
08
82
02
84
84
04
84
01
01
81
00
84
04
04
01
88
08
81
04
04
04
04
88
81
88
88
84
82
88
10
90
04
00
88
04
04
84
04
00
02
01
82
04
82
00
88
82
00
04
82
84
04
08
02
84
84
84
84
01
81
02
84
82
81
04
84
04
02
84
08
88
08
02
02
08
88
02
02
90
88
82
04
81
04
88
88
10
88
08
00
88
81
10
01
04
04
88
02
81
08
00
82
82
01
01
01
08
04
04
08
04
88
88
02
08
00
02
81
84
82
81
02
84
02
04
90
88
08
04
01
08
01
82
08
88
88
84
84
08
08
00
84
88
82
88
00
84
08
88
88
04
81
82
88
04
88
10
01
02
82
00
08
08
81
04
04
04
84
84
10
01
84
01
88
08
88
88
88
84
08
81
08
04
04
90
02
88
01
04
08
82
04
08
84
04
88
88
08
02
84
81
84
08
08
04
82
04
08
02
84
08
02
88
84
84
08
90
08
90
08
04
88
82
84
00
04
84
04
04
00
00
04
00
01
01
02
84
84
00
82
00
00
00
08
08
08
88
88
00
88
84
88
02
02
02
88
88
00
