90
84
02
08
04
10
02
10
10
04
00
10
90
08
08
10
08
00
08
90
10
02
10
08
20
84
20
82
08
90
90
90
08
84
10
88
90
02
82
02
08
10
08
08
10
88
84
02
88
10
10
88
10
90
02
84
10
02
02
88
81
88
04
84
88
90
00
01
90
10
88
04
08
84
88
01
90
02
84
02
08
10
88
90
20
84
04
08
10
10
08
81
10
04
81
01
00
04
04
88
90
10
10
01
08
82
08
10
08
88
08
81
84
10
04
a0
08
82
10
04
04
00
08
a0
10
88
a0
84
90
88
08
00
88
01
04
08
01
04
88
10
81
01
08
88
84
10
08
90
08
90
08
08
20
08
10
81
10
00
90
01
88
04
01
08
08
90
82
00
02
10
10
10
04
04
20
82
90
10
10
04
10
82
04
88
20
01
10
90
10
82
90
88
88
88
20
10
90
02
90
08
88
90
a0
88
90
20
10
82
10
08
84
90
88
84
88
04
10
20
10
90
88
90
08
88
02
01
04
04
04
10
08
81
08
88
90
00
08
10
82
88
04
04
81
88
08
90
10
02
08
10
10
90
10
82
02
84
88
84
02
02
90
82
90
82
10
88
90
08
84
10
10
84
88
84
04
90
04
90
04
10
20
82
20
02
10
88
84
90
90
84
01
20
90
08
90
10
88
88
a0
90
90
10
08
90
10
04
02
90
04
90
10
10
10
00
08
08
88
00
90
90
90
82
88
08
88
84
10
90
10
10
81
20
08
90
04
82
88
10
10
81
00
90
10
01
10
88
08
90
10
a0
a0
90
08
82
90
04
84
90
08
00
88
90
81
88
84
88
90
88
10
88
88
10
88
90
88
84
88
84
90
10
90
02
04
01
90
02
20
08
90
84
08
10
08
08
08
04
88
20
04
04
04
08
82
84
10
90
10
04
08
08
08
90
08
90
90
90
10
04
88
08
88
88
00
08
01
90
88
90
08
08
88
88
02
81
84
82
88
88
04
08
02
10
88
08
04
04
88
10
90
82
04
10
90
84
04
82
04
08
08
01
01
04
08
88
88
10
08
88
08
01
04
08
04
08
08
a0
10
90
88
88
01
90
04
04
84
10
81
10
88
88
81
88
a0
08
90
08
10
04
01
a0
08
84
02
02
08
10
04
81
04
84
04
90
90
02
08
08
04
04
81
10
02
10
88
10
88
08
10
01
02
10
10
90
10
a0
01
08
08
10
08
84
08
90
a0
88
90
08
00
10
88
04
10
10
10
10
08
02
08
84
10
84
88
10
10
90
20
a0
10
84
10
08
20
84
10
a0
88
90
90
88
08
20
88
08
88
82
10
88
01
01
04
08
04
04
10
08
88
a0
20
88
10
08
10
88
08
88
00
90
82
88
90
88
10
08
88
08
00
10
10
04
84
08
01
10
04
00
88
08
81
a0
10
90
04
08
08
08
20
88
08
88
84
a0
90
82
02
02
88
84
08
81
10
82
90
02
84
82
20
04
02
08
00
a0
10
84
04
10
10
84
20
90
04
01
90
81
90
04
04
10
90
00
88
82
04
04
84
10
88
08
84
08
84
00
04
88
10
88
02
10
10
08
08
90
10
88
90
88
01
04
88
10
90
82
04
04
10
08
08
10
04
04
08
10
00
10
10
a0
04
a0
08
08
20
04
02
90
01
04
90
84
90
08
08
88
90
88
88
08
08
88
08
02
88
08
08
08
88
81
84
88
08
88
01
20
82
01
08
84
10
90
a0
84
04
88
04
81
81
00
04
20
08
02
84
10
02
10
10
84
08
10
08
90
82
00
10
84
08
04
10
90
10
90
04
88
88
10
90
88
88
90
10
a0
10
04
10
10
10
a0
08
08
a0
10
10
10
01
90
08
88
10
04
08
90
08
84
90
88
90
88
10
20
90
02
82
10
10
08
88
10
81
10
10
10
08
10
84
a0
08
90
10
08
20
10
20
a0
20
a0
90
84
88
04
84
10
90
08
08
88
10
08
84
02
82
81
08
00
84
04
10
88
00
88
20
00
20
10
10
90
10
88
c0
84
81
88
08
10
88
02
81
20
04
08
04
04
90
08
10
08
90
01
10
82
04
88
20
02
08
08
10
84
01
84
84
84
90
10
10
08
08
88
00
88
04
08
10
04
10
81
08
10
88
10
20
a0
10
90
20
88
84
01
10
90
20
90
88
90
88
88
10
08
90
10
02
08
84
90
04
08
08
10
04
88
88
04
88
88
81
01
82
82
02
10
90
82
88
10
84
20
01
04
90
88
88
88
82
04
08
90
02
08
10
90
08
10
84
04
02
10
84
90
84
08
88
04
04
88
81
90
90
08
