00
84
82
88
84
00
02
88
88
88
02
02
00
04
08
82
84
10
01
90
08
00
84
82
01
08
00
90
04
08
84
04
84
08
88
08
08
88
08
10
84
04
08
82
90
04
88
00
01
82
84
84
10
90
84
88
84
08
84
08
01
84
81
04
08
88
88
02
04
88
02
08
04
88
81
01
08
04
08
88
82
84
04
04
01
08
04
02
04
00
84
84
04
88
81
04
08
04
88
08
90
84
04
08
88
88
00
82
84
10
00
84
81
81
04
88
08
84
84
84
84
00
08
02
81
08
04
84
84
08
04
90
88
90
82
10
84
01
08
02
88
00
88
84
84
84
84
88
84
82
08
82
82
02
04
04
04
08
81
04
00
81
88
88
84
04
81
82
02
04
04
02
88
01
88
88
82
08
01
84
00
84
01
02
04
04
01
88
04
82
82
82
84
02
01
08
04
08
08
88
08
84
82
08
08
88
08
00
08
88
02
01
90
81
02
02
02
84
90
88
84
90
88
08
02
02
02
84
88
01
04
88
08
88
08
08
04
88
02
82
88
08
02
04
04
88
88
02
10
04
04
04
10
02
88
82
08
04
82
90
01
82
88
02
84
04
04
00
84
82
84
88
00
04
82
82
82
82
00
84
04
10
08
84
84
08
90
08
00
08
04
04
04
82
04
84
88
84
82
84
00
84
00
90
82
81
02
10
90
01
08
84
88
84
81
82
81
84
82
01
04
10
00
88
84
90
84
81
88
81
08
04
82
01
04
04
88
08
90
04
10
84
00
82
00
01
08
08
08
08
84
88
00
82
84
82
01
08
08
84
08
04
88
82
10
88
04
01
04
01
10
00
01
10
88
10
02
82
04
04
90
88
84
00
82
04
84
82
00
04
04
01
00
00
10
84
88
04
02
02
88
00
84
82
84
08
02
84
08
04
84
01
81
82
02
04
84
84
84
08
10
10
84
84
08
84
82
04
02
88
04
88
02
90
04
08
84
10
08
10
01
84
88
82
88
90
84
08
01
88
84
84
10
08
00
02
82
88
88
81
82
04
04
84
02
08
04
02
84
84
00
02
04
02
08
02
02
02
01
04
02
04
04
08
20
84
04
90
10
82
82
82
00
01
08
82
04
88
08
10
88
01
82
10
08
04
88
04
90
84
82
04
88
82
08
81
01
84
02
84
01
88
04
08
82
08
84
84
88
84
82
08
04
84
88
84
84
84
88
04
08
00
02
04
84
01
90
01
02
88
04
01
82
84
88
82
84
82
84
88
82
08
04
01
84
84
88
02
84
02
00
82
04
81
82
84
08
82
00
08
02
88
08
04
84
00
10
08
88
04
02
84
81
08
81
08
82
84
00
88
04
84
00
84
04
84
82
88
82
01
01
02
00
00
04
88
88
88
84
02
04
84
82
02
08
08
90
84
90
08
04
04
08
02
81
02
84
88
08
08
08
00
04
88
88
81
10
04
90
08
04
04
08
88
02
90
82
84
08
82
04
02
84
88
04
84
88
84
82
00
00
88
04
84
08
81
00
88
08
02
81
88
08
82
00
08
04
02
08
01
84
88
82
81
88
90
02
84
04
01
08
00
88
04
84
88
84
00
84
84
82
02
04
84
02
01
00
00
88
00
10
08
84
10
00
08
90
84
88
84
01
88
00
04
84
84
04
08
84
02
82
88
88
08
88
82
81
04
88
82
01
82
08
02
81
00
10
00
04
84
04
81
02
04
04
81
82
84
88
02
84
10
02
04
08
84
00
00
84
82
08
02
84
02
04
81
08
01
84
88
00
04
04
84
84
88
04
84
90
81
88
08
00
00
81
00
88
00
01
02
81
84
04
81
01
88
02
08
04
02
90
82
88
02
88
84
00
08
81
02
02
84
02
08
82
04
02
88
08
82
08
90
84
04
08
04
88
90
88
08
04
04
02
81
10
84
04
08
84
08
84
04
90
00
84
04
84
88
00
08
84
04
08
90
08
04
88
81
08
84
02
08
04
08
01
08
02
84
01
08
00
00
00
82
02
01
04
04
04
00
88
01
04
08
90
01
10
08
90
01
88
81
01
82
00
00
84
84
81
08
02
10
88
08
08
81
88
84
84
10
04
88
04
84
88
88
88
81
04
04
84
82
88
84
82
01
84
84
10
04
84
84
01
00
08
04
08
88
08
84
84
81
04
08
10
04
00
88
02
88
84
01
08
01
04
90
08
84
08
02
00
10
84
08
84
88
88
02
08
04
08
10
88
02
00
08
04
08
01
90
04
81
84
90
08
88
04
82
10
90
08
10
88
08
84
04
08
10
81
88
82
08
90
88
