88
04
84
04
00
08
04
84
88
01
82
08
04
10
08
90
82
88
08
a0
08
10
04
88
08
01
08
04
04
88
08
10
82
84
08
84
04
08
88
88
84
02
02
10
90
08
10
08
08
08
90
81
88
04
10
84
84
10
08
00
00
90
04
08
82
88
10
10
90
01
81
08
90
88
00
00
88
10
88
90
81
88
84
a0
84
08
08
04
08
08
20
82
08
84
88
88
04
84
08
10
90
81
88
04
04
04
82
08
00
04
08
82
04
88
81
88
08
88
88
88
08
04
10
02
88
84
02
84
82
88
08
10
90
08
88
01
04
81
00
82
04
08
08
04
84
08
04
90
10
84
02
82
00
08
10
84
04
81
84
88
88
88
01
10
08
84
82
88
04
04
00
84
90
88
04
90
04
84
88
04
04
04
88
88
10
84
08
04
02
08
90
08
10
90
10
02
90
10
90
04
81
88
04
88
88
20
84
90
10
88
90
88
08
04
90
04
84
08
00
10
88
88
08
02
02
82
04
08
88
82
84
10
81
90
88
88
00
10
08
02
84
82
81
a0
84
84
81
01
08
82
20
02
88
00
88
88
90
04
10
10
88
10
02
10
08
02
90
88
88
01
08
08
01
88
04
84
82
90
08
08
04
04
08
00
04
82
81
81
04
84
81
20
90
04
81
04
04
02
81
81
90
01
84
82
02
88
88
a0
82
04
04
10
08
04
20
10
04
84
04
88
84
08
88
04
81
88
04
04
02
08
84
08
08
84
82
08
88
10
10
00
08
88
88
88
04
10
08
90
08
88
04
90
02
84
88
90
04
90
88
90
88
88
02
08
82
90
84
08
08
88
08
10
90
02
84
82
90
90
88
10
90
02
10
08
88
08
02
02
90
08
01
08
08
84
90
02
84
10
88
08
88
84
08
90
10
02
04
84
10
10
08
90
08
04
84
04
84
88
81
00
82
10
88
02
84
04
90
88
88
10
82
00
04
04
90
10
04
02
00
84
82
04
08
08
88
10
10
08
02
84
10
10
88
08
88
08
08
84
84
81
88
08
04
84
00
04
88
90
84
88
82
08
04
04
10
82
88
88
88
04
08
90
04
08
82
10
88
10
04
84
90
90
90
04
90
88
04
00
90
88
90
20
90
10
10
08
10
02
88
10
04
01
84
08
88
04
04
10
84
82
82
84
82
88
90
00
01
02
08
02
08
88
82
88
81
10
10
02
10
88
81
02
88
08
01
88
08
08
82
82
04
00
02
88
84
02
88
10
08
88
88
82
08
90
10
04
88
08
08
08
10
88
88
02
04
88
02
88
08
84
90
10
04
08
04
08
82
01
02
84
88
88
08
84
88
a0
08
84
00
08
81
10
20
88
02
88
02
84
02
81
01
10
02
08
02
04
84
88
02
84
02
08
08
84
02
84
82
c0
08
84
81
08
10
08
20
88
04
08
08
88
00
90
84
08
04
10
08
84
88
88
88
88
00
08
04
88
88
04
84
a0
01
82
08
08
02
08
01
04
81
84
88
08
81
81
10
10
84
08
88
02
02
88
88
08
88
08
88
90
08
04
88
a0
08
02
88
10
10
10
20
90
02
84
84
84
82
04
08
10
04
08
88
10
08
84
02
02
84
08
81
02
04
88
02
00
88
88
00
84
08
88
20
84
08
08
08
04
88
84
10
08
04
10
00
08
88
04
84
88
90
84
08
90
04
04
04
90
84
01
84
02
10
10
02
02
88
88
84
02
10
88
08
01
90
08
88
04
82
90
84
82
04
08
84
88
88
84
04
82
02
08
90
04
08
08
10
08
88
82
08
84
88
04
88
08
81
08
81
90
88
84
84
04
04
84
84
82
88
08
84
02
90
81
04
02
08
00
88
04
84
84
08
04
08
90
84
04
88
10
88
08
88
82
88
88
90
10
04
00
00
04
82
a0
84
02
84
84
08
84
10
00
08
08
08
88
81
08
10
10
84
88
88
08
88
88
90
08
84
84
02
88
88
02
01
04
04
04
04
90
10
84
02
08
82
88
04
08
08
84
08
81
02
08
01
84
84
88
90
82
84
08
00
08
88
08
04
90
02
90
02
08
10
08
04
84
10
88
88
04
88
01
01
10
81
84
08
04
02
08
88
82
84
01
84
02
88
08
84
82
84
84
10
08
20
82
10
04
00
90
88
04
10
90
01
10
90
08
04
88
90
88
90
82
90
04
88
82
08
88
90
82
04
04
88
08
02
10
88
81
88
84
04
04
88
84
00
10
90
00
08
84
84
90
88
10
02
08
88
84
88
04
88
88
82
88
04
90
10
90
02
84
04
08
08
88
