88
04
84
01
01
84
08
01
01
82
08
88
81
01
08
88
04
02
84
08
84
88
82
84
08
08
81
00
82
81
08
02
08
08
02
84
88
88
90
08
84
04
01
02
81
10
82
82
08
08
01
08
01
82
00
02
04
02
88
04
08
01
82
88
84
88
81
82
88
81
08
08
84
84
88
81
84
88
04
00
84
00
04
01
84
04
84
84
01
84
84
82
10
04
82
82
81
02
04
88
81
00
08
00
84
84
00
84
08
81
00
04
88
04
90
84
00
08
88
82
04
08
00
04
04
08
01
88
82
01
81
84
01
88
08
84
81
88
04
88
90
84
02
82
88
08
88
08
84
08
08
02
04
04
00
04
04
02
82
90
82
82
08
84
02
82
84
01
84
04
81
04
08
02
88
04
88
02
02
02
01
82
88
88
00
04
08
00
01
88
10
84
88
84
08
01
08
08
84
84
04
00
01
01
00
82
00
00
10
82
08
04
08
08
02
02
08
84
90
01
88
88
88
88
02
81
01
84
84
02
08
88
82
08
04
84
88
84
08
84
08
04
84
81
10
88
04
81
08
04
00
08
81
81
82
00
88
82
01
84
04
90
04
02
81
81
08
08
00
04
84
88
04
01
88
82
88
01
02
84
84
02
81
04
02
08
84
90
01
02
82
88
04
81
04
02
08
88
88
82
84
02
01
88
84
82
02
00
88
84
90
08
81
88
90
08
84
84
02
08
04
04
04
88
90
84
82
04
82
08
81
82
02
10
84
02
01
00
88
08
04
84
88
00
08
04
82
04
08
04
04
84
84
04
01
08
02
10
08
82
08
00
84
04
08
82
88
82
04
88
04
81
84
82
90
84
08
82
84
81
02
88
82
84
02
81
08
00
84
84
04
82
02
02
82
02
02
90
04
02
88
81
88
00
00
82
08
08
04
90
04
84
84
04
02
01
88
10
08
04
08
82
01
84
84
84
84
04
04
88
08
04
84
01
04
08
04
08
04
08
08
81
84
90
90
88
84
82
88
04
81
90
88
88
08
08
88
01
01
01
02
84
00
81
88
82
84
01
84
90
08
04
84
88
01
02
88
84
88
08
90
84
08
02
01
08
04
04
82
02
88
88
82
82
10
82
02
88
10
01
88
08
02
10
88
01
88
02
84
88
88
08
84
08
81
88
00
88
10
02
04
84
02
82
90
08
88
88
00
02
84
84
04
84
88
02
82
81
02
84
04
10
02
88
82
82
88
84
82
04
84
04
01
08
01
01
08
88
08
88
81
08
88
84
04
88
00
84
84
04
84
81
08
08
01
01
02
00
00
08
02
84
10
04
84
00
04
08
84
04
04
88
84
84
84
08
10
04
02
84
01
04
04
08
08
10
88
10
88
02
00
84
01
90
82
88
88
84
08
88
04
84
82
88
84
02
84
04
04
04
88
08
08
88
88
08
04
04
90
00
00
01
04
01
04
88
01
84
08
08
82
04
04
88
10
88
08
84
81
84
88
84
08
88
08
00
84
84
08
04
04
00
01
01
82
82
84
84
84
08
08
88
08
88
84
88
84
00
04
02
82
02
08
04
01
88
81
08
82
04
08
84
88
04
82
02
00
88
84
88
08
84
04
88
10
08
84
81
81
90
04
00
02
20
02
82
84
04
10
08
81
82
81
01
04
84
08
08
84
82
00
88
02
04
84
04
88
02
88
82
01
84
04
01
88
02
04
84
82
02
04
82
04
00
02
10
04
88
02
88
82
01
04
00
08
82
04
88
88
82
84
90
84
84
04
88
84
88
81
02
84
81
82
04
90
81
01
08
88
04
00
02
00
88
84
90
10
00
08
82
10
82
82
90
88
88
04
01
00
00
81
84
84
02
84
02
82
02
08
82
10
90
81
88
04
82
82
81
08
08
81
88
04
84
01
84
84
82
08
01
04
02
04
02
02
81
81
04
84
84
02
00
04
04
08
08
82
81
88
88
01
02
88
88
00
84
88
04
88
90
84
88
84
82
04
82
90
81
08
08
88
04
01
02
10
88
01
88
01
04
84
81
04
88
84
84
00
02
84
01
88
88
90
04
02
00
04
00
04
00
08
04
84
81
04
04
08
88
02
84
84
90
88
81
04
04
01
84
88
08
84
02
04
84
02
08
08
81
88
01
88
02
04
08
00
08
82
84
08
00
84
88
00
90
04
82
10
00
81
84
08
88
84
02
04
84
08
88
81
02
02
81
81
02
04
10
08
04
88
81
00
04
88
01
02
04
02
02
08
82
08
88
04
02
88
88
10
88
01
88
02
02
02
02
88
04
01
81
88
08
02
84
88
90
