00
01
08
10
04
82
04
04
04
88
88
00
90
00
20
08
08
88
81
88
02
90
01
10
10
02
10
90
08
90
90
08
88
10
84
01
a0
82
04
90
08
81
10
10
10
90
04
10
88
08
10
90
02
88
00
82
10
04
84
90
10
84
90
90
88
04
10
04
a0
08
88
20
04
01
01
88
90
10
88
90
10
88
81
90
00
84
10
08
08
08
02
88
84
90
88
90
88
02
88
88
90
88
10
88
10
10
10
10
02
01
10
01
01
84
02
00
81
90
10
10
04
82
08
90
10
88
88
84
88
10
08
10
82
84
00
01
10
84
08
04
88
08
20
01
00
10
08
81
10
88
01
04
10
08
08
02
10
88
01
88
90
20
10
10
88
82
82
88
84
82
08
08
08
82
10
10
88
82
08
88
08
90
10
82
04
84
88
84
08
88
88
84
08
90
20
08
90
10
90
10
90
81
88
84
88
08
81
90
84
02
88
90
04
84
00
08
08
82
04
01
04
04
02
08
84
00
00
20
84
01
88
08
00
04
88
04
90
10
00
00
84
04
00
a0
01
90
84
08
10
08
08
90
01
90
02
82
82
88
08
10
a0
02
88
00
02
81
00
08
01
10
10
82
88
08
84
88
04
90
08
00
20
08
20
90
04
84
a0
90
01
82
84
02
88
84
90
08
84
88
88
84
88
10
82
82
08
88
90
02
20
88
84
04
84
08
10
84
90
08
82
04
90
08
08
02
88
04
00
90
04
10
10
20
02
88
08
10
90
04
10
90
08
90
00
08
08
00
02
02
02
90
84
88
82
04
82
01
08
84
08
a0
81
88
10
88
10
a0
88
82
84
82
10
04
90
08
84
90
04
88
88
10
88
01
84
08
84
10
04
08
90
08
84
08
84
08
04
82
90
08
10
82
88
08
08
84
20
90
00
88
10
08
01
88
08
88
90
84
88
04
81
02
88
84
88
88
04
10
84
82
88
00
20
90
84
08
88
00
82
02
10
04
08
04
02
08
84
02
88
84
01
08
10
08
90
04
04
00
00
88
88
01
08
84
08
82
84
84
81
01
08
88
10
10
08
00
10
90
00
90
04
02
82
90
10
10
90
10
84
04
90
02
88
90
90
08
90
90
08
90
88
04
08
84
02
08
88
10
10
81
88
10
08
10
90
01
04
04
88
84
88
08
10
84
81
08
02
02
81
88
88
04
02
88
04
90
84
08
20
84
00
84
04
90
84
90
90
02
08
02
84
88
10
88
81
82
90
02
88
10
08
10
88
81
01
90
10
88
01
08
10
84
10
90
10
84
88
90
90
90
08
10
02
81
08
08
04
90
84
88
88
10
02
88
08
88
04
a0
10
02
08
08
04
00
10
08
10
90
84
02
90
04
82
08
88
10
04
08
04
84
84
04
82
10
82
88
84
88
84
82
10
84
10
08
10
08
10
88
08
04
02
84
90
90
82
08
90
04
90
10
10
08
04
10
90
08
04
08
81
10
10
90
08
82
01
10
04
10
10
84
08
84
90
88
81
88
08
10
88
02
81
04
04
90
90
84
84
10
08
82
08
08
08
90
10
88
08
08
10
10
20
90
08
00
02
04
01
10
81
10
00
82
04
90
08
08
08
08
08
10
81
08
88
02
04
90
88
a0
10
10
08
02
10
90
10
88
84
00
88
04
08
04
90
04
08
84
08
10
04
10
84
04
02
10
84
10
02
88
10
88
81
02
20
90
08
82
08
90
90
88
82
04
02
08
90
04
88
84
88
88
88
88
84
08
01
84
10
90
04
a0
08
04
88
04
82
84
10
84
10
08
90
01
90
08
82
02
90
00
10
90
02
00
10
10
08
90
84
08
a0
10
10
01
88
88
10
90
10
01
08
90
04
81
84
04
84
02
10
10
90
88
90
08
88
88
88
10
a0
08
10
88
10
88
08
88
08
02
81
02
08
10
10
84
04
90
88
84
08
10
82
10
88
90
04
90
84
04
82
10
00
04
08
08
00
10
10
02
01
82
08
01
10
84
08
88
84
84
a0
82
84
88
04
02
08
01
81
20
02
00
04
81
08
84
10
02
04
10
84
90
08
88
10
10
10
88
08
84
04
84
90
88
84
04
82
08
02
84
00
88
10
10
84
10
10
90
10
10
90
04
10
88
84
90
10
02
10
88
02
90
08
84
88
88
08
84
04
04
a0
04
82
84
84
88
08
08
10
82
02
08
88
02
10
84
82
88
82
90
10
10
10
88
84
90
88
10
00
04
04
81
00
84
10
90
08
84
10
20
08
02
04
08
84
02
04
84
04
90
10
02
01
04
10
02
08
02
a0
08
