04
88
08
04
02
88
82
04
84
88
10
08
01
88
02
84
81
08
88
82
81
88
84
04
02
04
01
08
84
84
88
81
08
02
02
82
02
00
04
02
01
84
04
84
01
82
88
04
82
10
88
84
04
04
88
08
02
04
02
88
02
04
01
88
08
08
08
04
84
10
08
00
04
00
04
84
00
00
00
84
00
81
84
04
04
00
04
04
88
00
84
02
81
00
08
01
88
81
04
84
88
84
84
02
84
84
04
08
82
84
81
82
88
81
82
84
08
84
90
81
08
10
04
88
82
08
88
84
88
00
81
04
82
01
02
08
82
81
10
01
04
82
00
84
84
84
04
08
84
08
84
04
81
84
04
04
08
04
82
88
08
02
81
02
02
04
84
08
82
08
00
08
00
84
84
88
04
02
84
82
82
88
82
04
04
04
08
08
04
04
08
88
84
82
08
84
02
08
08
01
08
81
88
88
82
82
08
84
04
88
08
04
88
04
01
08
10
88
82
90
00
88
88
08
82
10
82
08
81
84
10
02
82
00
08
04
04
02
02
88
02
04
88
01
04
81
02
08
00
82
08
88
04
82
84
08
08
04
82
88
00
82
08
08
08
04
00
08
04
82
88
90
88
00
02
82
04
02
81
88
84
84
88
01
08
02
88
08
90
84
08
08
84
82
82
84
08
84
90
84
00
00
04
88
04
02
08
04
88
84
00
04
10
04
88
84
84
90
88
08
10
10
82
88
82
88
88
04
81
88
82
08
88
02
08
08
88
02
04
84
84
01
84
88
88
10
04
84
10
88
02
00
08
84
10
02
04
04
84
00
04
84
04
88
04
84
04
88
04
82
08
08
04
84
88
08
84
90
88
88
88
88
88
82
81
82
01
02
01
84
02
08
02
84
08
01
00
81
08
88
00
84
00
88
88
88
08
82
01
04
02
88
08
00
82
88
88
04
04
04
04
10
08
00
84
84
82
00
08
02
82
82
08
08
04
10
81
08
04
84
08
84
88
88
88
84
88
10
84
04
04
02
02
88
04
81
88
82
08
04
84
82
04
88
82
10
02
00
81
82
02
90
01
02
88
01
01
08
84
84
84
84
04
08
88
81
02
90
01
88
90
81
02
88
04
82
08
88
82
10
82
04
04
08
88
10
90
88
90
88
81
08
10
10
81
88
82
82
04
08
84
84
10
84
00
84
88
84
88
04
04
88
81
01
01
84
00
84
01
84
84
01
82
04
82
04
88
84
01
84
08
81
00
02
04
04
81
04
04
88
88
01
88
08
84
88
88
84
02
04
08
82
84
04
08
04
84
02
88
90
81
04
01
82
84
84
08
84
10
08
00
90
04
02
02
01
08
84
82
82
82
08
88
88
02
84
82
00
02
08
08
82
00
81
08
00
08
90
02
02
08
01
00
88
04
81
00
01
88
02
84
04
04
84
88
88
82
01
00
08
04
01
10
84
82
84
10
04
08
82
02
88
04
04
04
88
81
84
90
02
84
02
08
88
01
08
82
01
88
81
88
88
82
04
88
88
02
84
08
00
90
04
02
10
82
82
04
90
82
84
04
04
08
02
84
88
84
08
08
04
00
84
88
88
04
02
00
81
01
81
82
02
81
84
08
10
08
04
08
88
08
88
88
81
88
01
82
00
04
08
88
08
01
08
08
88
04
02
08
81
08
84
82
82
88
84
08
00
02
84
84
88
08
84
84
90
02
90
88
84
84
08
02
82
84
00
88
01
02
84
10
04
04
02
08
82
01
08
88
04
82
88
02
88
82
88
01
04
82
00
82
04
02
08
81
88
84
01
88
08
02
82
84
81
84
88
81
90
82
00
08
04
08
01
84
08
82
02
00
08
81
88
01
88
88
10
04
00
84
08
08
88
81
02
08
00
01
08
04
08
02
88
04
81
88
04
84
88
81
04
02
82
84
00
82
84
04
88
08
84
84
02
01
90
84
81
01
00
02
88
04
10
08
90
04
01
01
82
01
84
04
08
04
88
81
84
84
08
04
10
84
02
82
10
04
81
08
84
02
08
88
00
10
82
88
00
02
82
88
90
08
84
82
04
02
00
00
04
88
88
02
01
82
82
88
01
00
82
04
84
00
84
08
04
08
82
84
84
08
81
90
88
88
88
88
00
90
01
88
02
90
82
04
82
00
88
08
08
90
81
01
84
84
84
00
00
04
81
08
90
01
04
04
82
84
82
88
88
04
01
04
84
81
08
08
10
00
88
84
08
82
84
08
04
04
81
84
08
02
90
02
88
08
82
04
10
08
84
08
88
08
82
88
04
88
02
84
10
01
10
84
82
84
88
